TRT-101303-EntropyCalibration2
input: 3bc95a95
conv2d: 3c30056b
relu: 3bf97d37
conv2d_1: 3bbd6b78
getitem: 3dbf92a6
hardtanh: 3d3d7efe
conv2d_2: 3cfcc5d5
getitem_3: 3dba7181
hardtanh_1: 3d418f1e
conv2d_3: 3d38062a
getitem_6: 3e169e7f
hardtanh_2: 3d418f1e
conv2d_4: 3d1e0807
getitem_9: 3dd5553d
hardtanh_3: 3d418f1e
add: 3d5ad00d
conv2d_5: 3d7cdfba
getitem_12: 3e2dc14c
hardtanh_4: 3d418f1e
conv2d_6: 3d2c1ab0
getitem_15: 3de89614
hardtanh_5: 3d418f1e
conv2d_7: 3d6153aa
getitem_18: 3e0bcc3f
hardtanh_6: 3d418f1e
conv2d_8: 3d4befb5
getitem_21: 3dc20146
hardtanh_7: 3d418f1e
add_1: 3dc7af44
conv2d_9: 3d97b80d
getitem_24: 3e161b01
hardtanh_8: 3d418f1e
conv2d_10: 3d499302
getitem_27: 3dc214e7
hardtanh_9: 3d418f1e
conv2d_11: 3d41c8d3
getitem_30: 3db793e4
hardtanh_10: 3d418f1e
conv2d_12: 3d52a11d
getitem_33: 3db69f1f
hardtanh_11: 3d418f1e
add_2: 3e0c5c1b
conv2d_13: 3dd0ff4b
getitem_36: 3df28a1f
hardtanh_12: 3d418f1e
conv2d_14: 3d17837b
getitem_39: 3dba7853
hardtanh_13: 3d418f1e
conv2d_15: 3d3c9074
getitem_42: 3d9e2cb9
hardtanh_14: 3d418f1e
conv2d_16: 3d28cb81
getitem_45: 3da46f48
hardtanh_15: 3d418f1e
add_3: 3e2a92b7
conv2d_17: 3e0e7655
getitem_48: 3e0227c1
hardtanh_16: 3d418f1e
conv2d_18: 3d252625
getitem_51: 3da8b7cd
hardtanh_17: 3d418f1e
conv2d_19: 3d69d9fc
getitem_54: 3d98f766
hardtanh_18: 3d418f1e
conv2d_20: 3d2dd156
getitem_57: 3db82603
hardtanh_19: 3d418f1e
add_4: 3e457b1d
conv2d_21: 3e14a9c9
getitem_60: 3de6b387
hardtanh_20: 3d418f1e
conv2d_22: 3d338b9a
getitem_63: 3dba69b4
hardtanh_21: 3d418f1e
conv2d_23: 3d2e3fbf
getitem_66: 3dd6b833
hardtanh_22: 3d418f1e
conv2d_24: 3d3acf8a
getitem_69: 3db21ee6
hardtanh_23: 3d418f1e
add_5: 3e5c995b
getitem_72: 3d09f9cd
add_6: 3d1220ee
conv2d_26: 3c0bc262
output: 3bcc18ec
